4b4a494803020100
535251500b0a0908
5b5a595813121110
636261601b1a1918
6b6a696823222120
737271702b2a2928
7b7a797833323130
030201003b3a3938
0b0a090843424140
4f4e4d4c07060504
575655540f0e0d0c
5f5e5d5c17161514
676665641f1e1d1c
6f6e6d6c27262524
777675742f2e2d2c
7f7e7d7c37363534
070605043f3e3d3c
0f0e0d0c47464544
5b5a595813121110
636261601b1a1918
6b6a696823222120
737271702b2a2928
7b7a797833323130
030201003b3a3938
0b0a090843424140
131211104b4a4948
1b1a191853525150
5f5e5d5c17161514
676665641f1e1d1c
6f6e6d6c27262524
777675742f2e2d2c
7f7e7d7c37363534
070605043f3e3d3c
0f0e0d0c47464544
171615144f4e4d4c
1f1e1d1c57565554
