4b4a494803020100
535251500b0a0908
5b5a595813121110
636261601b1a1918
6b6a696823222120
737271702b2a2928
7b7a797833323130
838281803b3a3938
8b8a898843424140
4f4e4d4c07060504
575655540f0e0d0c
5f5e5d5c17161514
676665641f1e1d1c
6f6e6d6c27262524
777675742f2e2d2c
7f7e7d7c37363534
878685843f3e3d3c
8f8e8d8c47464544
dbdad9d893929190
e3e2e1e09b9a9998
ebeae9e8a3a2a1a0
f3f2f1f0abaaa9a8
fbfaf9f8b3b2b1b0
03020100bbbab9b8
0b0a0908c3c2c1c0
13121110cbcac9c8
1b1a1918d3d2d1d0
dfdedddc97969594
e7e6e5e49f9e9d9c
efeeedeca7a6a5a4
f7f6f5f4afaeadac
fffefdfcb7b6b5b4
07060504bfbebdbc
0f0e0d0cc7c6c5c4
17161514cfcecdcc
1f1e1d1cd7d6d5d4
